{
  "version": "1.0",
  "truncation": null,
  "padding": null,
  "added_tokens": [],
  "normalizer": null,
  "pre_tokenizer": {
    "type": "ByteLevel",
    "add_prefix_space": false,
    "trim_offsets": true,
    "use_regex": true
  },
  "post_processor": {
    "type": "TemplateProcessing",
    "single": [
      {
        "Sequence": {
          "id": "A",
          "type_id": 0
        }
      },
      {
        "SpecialToken": {
          "id": "<|eos|>",
          "type_id": 0
        }
      }
    ],
    "pair": [
      {
        "Sequence": {
          "id": "A",
          "type_id": 0
        }
      },
      {
        "Sequence": {
          "id": "B",
          "type_id": 1
        }
      }
    ],
    "special_tokens": {
      "<|eos|>": {
        "id": "<|eos|>",
        "ids": [
          2
        ],
        "tokens": [
          "<|eos|>"
        ]
      }
    }
  },
  "decoder": {
    "type": "ByteLevel",
    "add_prefix_space": true,
    "trim_offsets": true,
    "use_regex": true
  },
  "model": {
    "type": "BPE",
    "dropout": null,
    "unk_token": null,
    "continuing_subword_prefix": "",
    "end_of_word_suffix": "",
    "fuse_unk": false,
    "byte_fallback": false,
    "ignore_merges": false,
    "vocab": {
      "<|pad|>": 0,
      "<|bos|>": 1,
      "<|eos|>": 2,
      "<|unk|>": 3,
      "!": 4,
      "\"": 5,
      "#": 6,
      "$": 7,
      "%": 8,
      "&": 9,
      "'": 10,
      "(": 11,
      ")": 12,
      "*": 13,
      "+": 14,
      ",": 15,
      "-": 16,
      ".": 17,
      "/": 18,
      "0": 19,
      "1": 20,
      "2": 21,
      "3": 22,
      "4": 23,
      "5": 24,
      "6": 25,
      "7": 26,
      "8": 27,
      "9": 28,
      ":": 29,
      ";": 30,
      "<": 31,
      "=": 32,
      ">": 33,
      "?": 34,
      "@": 35,
      "A": 36,
      "B": 37,
      "C": 38,
      "D": 39,
      "E": 40,
      "F": 41,
      "G": 42,
      "H": 43,
      "I": 44,
      "J": 45,
      "K": 46,
      "L": 47,
      "M": 48,
      "N": 49,
      "O": 50,
      "P": 51,
      "Q": 52,
      "R": 53,
      "S": 54,
      "T": 55,
      "U": 56,
      "V": 57,
      "W": 58,
      "X": 59,
      "Y": 60,
      "Z": 61,
      "[": 62,
      "\\": 63,
      "]": 64,
      "^": 65,
      "_": 66,
      "`": 67,
      "a": 68,
      "b": 69,
      "c": 70,
      "d": 71,
      "e": 72,
      "f": 73,
      "g": 74,
      "h": 75,
      "i": 76,
      "j": 77,
      "k": 78,
      "l": 79,
      "m": 80,
      "n": 81,
      "o": 82,
      "p": 83,
      "q": 84,
      "r": 85,
      "s": 86,
      "t": 87,
      "u": 88,
      "v": 89,
      "w": 90,
      "x": 91,
      "y": 92,
      "z": 93,
      "{": 94,
      "|": 95,
      "}": 96,
      "~": 97,
      "¡": 98,
      "¢": 99,
      "£": 100,
      "¤": 101,
      "¥": 102,
      "¦": 103,
      "§": 104,
      "¨": 105,
      "©": 106,
      "ª": 107,
      "«": 108,
      "¬": 109,
      "®": 110,
      "¯": 111,
      "°": 112,
      "±": 113,
      "²": 114,
      "³": 115,
      "´": 116,
      "µ": 117,
      "¶": 118,
      "·": 119,
      "¸": 120,
      "¹": 121,
      "º": 122,
      "»": 123,
      "¼": 124,
      "½": 125,
      "¾": 126,
      "¿": 127,
      "À": 128,
      "Á": 129,
      "Â": 130,
      "Ã": 131,
      "Ä": 132,
      "Å": 133,
      "Æ": 134,
      "Ç": 135,
      "È": 136,
      "É": 137,
      "Ê": 138,
      "Ë": 139,
      "Ì": 140,
      "Í": 141,
      "Î": 142,
      "Ï": 143,
      "Ð": 144,
      "Ñ": 145,
      "Ò": 146,
      "Ó": 147,
      "Ô": 148,
      "Õ": 149,
      "Ö": 150,
      "×": 151,
      "Ø": 152,
      "Ù": 153,
      "Ú": 154,
      "Û": 155,
      "Ü": 156,
      "Ý": 157,
      "Þ": 158,
      "ß": 159,
      "à": 160,
      "á": 161,
      "â": 162,
      "ã": 163,
      "ä": 164,
      "å": 165,
      "æ": 166,
      "ç": 167,
      "è": 168,
      "é": 169,
      "ê": 170,
      "ë": 171,
      "ì": 172,
      "í": 173,
      "î": 174,
      "ï": 175,
      "ð": 176,
      "ñ": 177,
      "ò": 178,
      "ó": 179,
      "ô": 180,
      "õ": 181,
      "ö": 182,
      "÷": 183,
      "ø": 184,
      "ù": 185,
      "ú": 186,
      "û": 187,
      "ü": 188,
      "ý": 189,
      "þ": 190,
      "ÿ": 191,
      "Ā": 192,
      "ā": 193,
      "Ă": 194,
      "ă": 195,
      "Ą": 196,
      "ą": 197,
      "Ć": 198,
      "ć": 199,
      "Ĉ": 200,
      "ĉ": 201,
      "Ċ": 202,
      "ċ": 203,
      "Č": 204,
      "č": 205,
      "Ď": 206,
      "ď": 207,
      "Đ": 208,
      "đ": 209,
      "Ē": 210,
      "ē": 211,
      "Ĕ": 212,
      "ĕ": 213,
      "Ė": 214,
      "ė": 215,
      "Ę": 216,
      "ę": 217,
      "Ě": 218,
      "ě": 219,
      "Ĝ": 220,
      "ĝ": 221,
      "Ğ": 222,
      "ğ": 223,
      "Ġ": 224,
      "ġ": 225,
      "Ģ": 226,
      "ģ": 227,
      "Ĥ": 228,
      "ĥ": 229,
      "Ħ": 230,
      "ħ": 231,
      "Ĩ": 232,
      "ĩ": 233,
      "Ī": 234,
      "ī": 235,
      "Ĭ": 236,
      "ĭ": 237,
      "Į": 238,
      "į": 239,
      "İ": 240,
      "ı": 241,
      "Ĳ": 242,
      "ĳ": 243,
      "Ĵ": 244,
      "ĵ": 245,
      "Ķ": 246,
      "ķ": 247,
      "ĸ": 248,
      "Ĺ": 249,
      "ĺ": 250,
      "Ļ": 251,
      "ļ": 252,
      "Ľ": 253,
      "ľ": 254,
      "Ŀ": 255,
      "ŀ": 256,
      "Ł": 257,
      "ł": 258,
      "Ń": 259,
      "ðŁ": 260,
      "er": 261,
      "Ġt": 262,
      "in": 263,
      "čĊ": 264,
      "Ġa": 265,
      "ou": 266,
      "ĠðŁ": 267,
      "Ġs": 268,
      "or": 269,
      "on": 270,
      "es": 271,
      "is": 272,
      "it": 273,
      "Ġc": 274,
      "ar": 275,
      "Ġf": 276,
      "ing": 277,
      "Ġth": 278,
      "ĠC": 279,
      "Ġd": 280,
      "re": 281,
      "Ġb": 282,
      "ed": 283,
      "Ġw": 284,
      "an": 285,
      "ay": 286,
      "en": 287,
      "el": 288,
      "'s": 289,
      "at": 290,
      "as": 291,
      "al": 292,
      "ĠS": 293,
      "ĠB": 294,
      ".\"": 295,
      "Ġy": 296,
      "our": 297,
      "ĠT": 298,
      "Ġthe": 299,
      "of": 300,
      "Ġn": 301,
      "et": 302,
      "nd": 303,
      "Ġl": 304,
      "ðŁį": 305,
      "ec": 306,
      "Ġm": 307,
      "ow": 308,
      "am": 309,
      "Ġh": 310,
      "ly": 311,
      "Ġp": 312,
      "om": 313,
      "ĠP": 314,
      "ic": 315,
      "oc": 316,
      "day": 317,
      "ut": 318,
      "Ġof": 319,
      "us": 320,
      "der": 321,
      "Ġto": 322,
      "gh": 323,
      "ee": 324,
      "ĠCh": 325,
      "Ġe": 326,
      "ch": 327,
      "Ġit": 328,
      "Ġfor": 329,
      "av": 330,
      "¸ı": 331,
      "ï¸ı": 332,
      "Ġyour": 333,
      "art": 334,
      "oo": 335,
      "Ġand": 336,
      "ver": 337,
      "ot": 338,
      "ol": 339,
      "ak": 340,
      "ĠðŁĮ": 341,
      "igh": 342,
      "ir": 343,
      "ĠR": 344,
      "Ġyou": 345,
      "ast": 346,
      "im": 347,
      "Ġr": 348,
      "ight": 349,
      "Ġon": 350,
      "ie": 351,
      "Ġbe": 352,
      "ĠðŁį": 353,
      "Ġin": 354,
      "Ġg": 355,
      "ist": 356,
      "Ġst": 357,
      "order": 358,
      "ll": 359,
      "Ġis": 360,
      "Ġâ": 361,
      "Ġre": 362,
      "le": 363,
      "own": 364,
      "ad": 365,
      "ess": 366,
      "Ġj": 367,
      "It": 368,
      "ust": 369,
      "Ġne": 370,
      "ve": 371,
      "Ġorder": 372,
      "ent": 373,
      "out": 374,
      "ter": 375,
      "rown": 376,
      "ĠBrown": 377,
      "ĠBrownie": 378,
      "Ġjust": 379,
      "ĠChoc": 380,
      "ĠðŁ¥": 381,
      "Your": 382,
      "ce": 383,
      "ri": 384,
      "ith": 385,
      "ert": 386,
      "ul": 387,
      "os": 388,
      "ion": 389,
      "est": 390,
      "Ġcart": 391,
      "ĠF": 392,
      "ro": 393,
      "Ġ1": 394,
      "Ġwith": 395,
      "un": 396,
      "ĠK": 397,
      "up": 398,
      "ur": 399,
      "und": 400,
      "ake": 401,
      "ill": 402,
      "ac": 403,
      "Ġfl": 404,
      "avor": 405,
      "eek": 406,
      "id": 407,
      "ĠM": 408,
      "essert": 409,
      "very": 410,
      "Ġdessert": 411,
      "ate": 412,
      "ome": 413,
      "ĠW": 414,
      "ant": 415,
      "ĠD": 416,
      "ĠL": 417,
      "Ġthis": 418,
      "Ġtoday": 419,
      "end": 420,
      "ðŁį«": 421,
      "ĠCar": 422,
      "Ġch": 423,
      "Ġweek": 424,
      "Ġflavor": 425,
      "off": 426,
      "ack": 427,
      "ðŁĺ": 428,
      "ĺķ": 429,
      "Ġcom": 430,
      "um": 431,
      "Ġhas": 432,
      "ĠA": 433,
      "fi": 434,
      "ĠSund": 435,
      "ock": 436,
      "'t": 437,
      "ew": 438,
      "ff": 439,
      "Ġoff": 440,
      "ĠChoco": 441,
      "ally": 442,
      "ulfi": 443,
      "ore": 444,
      "ĠO": 445,
      "âı": 446,
      "Ġday": 447,
      "iss": 448,
      "ľ¨": 449,
      "ĠKulfi": 450,
      "ista": 451,
      "ang": 452,
      "ĠPista": 453,
      "ĠBl": 454,
      "amel": 455,
      "ĠCaramel": 456,
      "ub": 457,
      "ason": 458,
      "bo": 459,
      "ap": 460,
      "ere": 461,
      "New": 462,
      "ðŁĴ": 463,
      "Ġout": 464,
      "ect": 465,
      "ose": 466,
      "ango": 467,
      "Ġtub": 468,
      "and": 469,
      "Ġbeen": 470,
      "Ġal": 471,
      "Ġneed": 472,
      "ud": 473,
      "ain": 474,
      "ait": 475,
      "offee": 476,
      "ry": 477,
      "ĠV": 478,
      "atch": 479,
      "ell": 480,
      "ðŁį¦": 481,
      "ĠðŁĵ": 482,
      "Ġat": 483,
      "ĠJ": 484,
      "ai": 485,
      "ees": 486,
      "ree": 487,
      "Ġare": 488,
      "Ġsc": 489,
      "Ġdel": 490,
      "ĠChees": 491,
      "ĠCheesec": 492,
      "ĠCheesecake": 493,
      "oop": 494,
      "ood": 495,
      "ðŁİ": 496,
      "Ġwait": 497,
      "chi": 498,
      "ook": 499,
      "ab": 500,
      "all": 501,
      "Ġone": 502,
      "chio": 503,
      "Th": 504,
      "ĠPistachio": 505,
      "Ġex": 506,
      "ae": 507,
      "isu": 508,
      "amisu": 509,
      "iramisu": 510,
      "ĠTiramisu": 511,
      "Ġâĺķ": 512,
      "ĠTh": 513,
      "Ġno": 514,
      "ui": 515,
      "ĠRose": 516,
      "âı³": 517,
      "one": 518,
      "ited": 519,
      "imited": 520,
      "udg": 521,
      "ame": 522,
      "Ġevery": 523,
      "eason": 524,
      "ĠH": 525,
      "ici": 526,
      "ings": 527,
      "Ġwaiting": 528,
      "ĠðŁĽ": 529,
      "Ġtim": 530,
      "Ġnow": 531,
      "old": 532,
      "Ġbatch": 533,
      "âľ¨": 534,
      "Ġcr": 535,
      "Ġdeli": 536,
      "ĠN": 537,
      "Ġonly": 538,
      "§ï¸ı": 539,
      "th": 540,
      "Ġseason": 541,
      "You": 542,
      "ðŁĵ": 543,
      "Some": 544,
      "Ġcombo": 545,
      "we": 546,
      "ice": 547,
      "ĠðŁİ": 548,
      "fore": 549,
      "Ġbefore": 550,
      "Ġstill": 551,
      "ĠðŁ¥Ń": 552,
      "ĠSundae": 553,
      "Ġ2": 554,
      "Ġper": 555,
      "Ġwh": 556,
      "udge": 557,
      "Ġk": 558,
      "ĠðŁĮ§ï¸ı": 559,
      "Ġoffici": 560,
      "Ġfr": 561,
      "olate": 562,
      "Ġcrav": 563,
      "ĠMango": 564,
      "ĠSt": 565,
      "bet": 566,
      "orbet": 567,
      "ðŁį«\"": 568,
      "ĠSorbet": 569,
      "ĠBit": 570,
      "ðŁ¤": 571,
      "Ġscoop": 572,
      "Ġbut": 573,
      "Ġ+": 574,
      "eck": 575,
      "ĠBar": 576,
      "Ġofficially": 577,
      "elv": 578,
      "ĠCup": 579,
      "ĠVelv": 580,
      "ĠVelvet": 581,
      "ĠBites": 582,
      "fect": 583,
      "ĠFudge": 584,
      "rop": 585,
      "ĠðŁį«": 586,
      "Ġnot": 587,
      "ĠChocolate": 588,
      "wir": 589,
      "ĠSwir": 590,
      "ĠSwirl": 591,
      "Ġdes": 592,
      "ĠJar": 593,
      "ĠWe": 594,
      "ðŁ¥": 595,
      "Ġsh": 596,
      "Ġdeser": 597,
      "oday": 598,
      "Ġcl": 599,
      "ĠCook": 600,
      "ince": 601,
      "Ġsince": 602,
      "st": 603,
      "Ġfree": 604,
      "Ġab": 605,
      "ted": 606,
      "wist": 607,
      "ting": 608,
      "ven": 609,
      "Ġcheck": 610,
      "ðŁĮ": 611,
      "oon": 612,
      "ich": 613,
      "ip": 614,
      "ady": 615,
      "ning": 616,
      "ĠCoffee": 617,
      "ðŁįª": 618,
      "Ġthat": 619,
      "Ġle": 620,
      "ive": 621,
      "Ġperfect": 622,
      "Ġtime": 623,
      "ĠG": 624,
      "ple": 625,
      "ard": 626,
      "Ġdrop": 627,
      "Ġen": 628,
      "Ġup": 629,
      "ough": 630,
      "Ġlast": 631,
      "ĠðŁ§": 632,
      "ĠPM": 633,
      "Ġswe": 634,
      "Ġcall": 635,
      "Ġsp": 636,
      "Ġmor": 637,
      "Ġsweet": 638,
      "Ġpl": 639,
      "ĠðŁĴ": 640,
      "ati": 641,
      "Ġdo": 642,
      "ĠðŁĮ¸": 643,
      "Ġwe": 644,
      "fter": 645,
      "ean": 646,
      "Ġ3": 647,
      "uiet": 648,
      "ħ\"": 649,
      "Ġeven": 650,
      "SA": 651,
      "Ġafter": 652,
      "ide": 653,
      "Ġo": 654,
      "Ġq": 655,
      "ream": 656,
      "Ġsl": 657,
      "Ġan": 658,
      "if": 659,
      "rder": 660,
      "ond": 661,
      "oad": 662,
      "PSA": 663,
      "way": 664,
      "Ġun": 665,
      "unch": 666,
      "ily": 667,
      "amily": 668,
      "'ve": 669,
      "ĠOrder": 670,
      "ĠAM": 671,
      "zer": 672,
      "âĿ": 673,
      "ron": 674,
      "ĠðŁĮĻ": 675,
      "aff": 676,
      "reat": 677,
      "ĠTr": 678,
      "Ġas": 679,
      "ava": 680,
      "vi": 681,
      "Ġrain": 682,
      "int": 683,
      "ity": 684,
      "ĠBut": 685,
      "Ġ10": 686,
      "ĠSal": 687,
      "Ġcou": 688,
      "ra": 689,
      "reak": 690,
      "Ġthan": 691,
      "ĠLava": 692,
      "lm": 693,
      "ĠRed": 694,
      "rem": 695,
      "esday": 696,
      "ĠButter": 697,
      "roiss": 698,
      "roissant": 699,
      "ĠCroissant": 700,
      "utell": 701,
      "utella": 702,
      "Ġ4": 703,
      "Ġevening": 704,
      "ĠSunday": 705,
      "Ġres": 706,
      "use": 707,
      "ct": 708,
      "uff": 709,
      "ĠNutella": 710,
      "affron": 711,
      "onut": 712,
      "oconut": 713,
      "ĠCoconut": 714,
      "Ġdelivery": 715,
      "ost": 716,
      "red": 717,
      "Ġlimited": 718,
      "ĠSaffron": 719,
      "ĠBliss": 720,
      "ium": 721,
      "ĠDel": 722,
      "remium": 723,
      "Ġour": 724,
      "ine": 725,
      "ĠAlm": 726,
      "ĠAlmond": 727,
      "ind": 728,
      "ĠTwist": 729,
      "ĠDelight": 730,
      "riple": 731,
      "ĠChip": 732,
      "ĠPremium": 733,
      "oud": 734,
      "nut": 735,
      "Ġhour": 736,
      "ĠCookie": 737,
      "gi": 738,
      "elgi": 739,
      "elgian": 740,
      "Ġweekend": 741,
      "¤ï¸ı": 742,
      "ĠBlack": 743,
      "ĠSalted": 744,
      "ecan": 745,
      "Ġfast": 746,
      "ĠPecan": 747,
      "Ġwar": 748,
      "ĠToday": 749,
      "ĠTriple": 750,
      "Ġmorning": 751,
      "ĠBelgian": 752,
      "se": 753,
      "ĠTart": 754,
      "hing": 755,
      "Ġpati": 756,
      "ĭï¸ı": 757,
      "erg": 758,
      "ĠðŁį°": 759,
      "Ġfamily": 760,
      "Ġsof": 761,
      "ðŁį¨": 762,
      "Ġdon": 763,
      "ation": 764,
      "ish": 765,
      "pr": 766,
      "ort": 767,
      "Ġnew": 768,
      "Ġsame": 769,
      "elf": 770,
      "ear": 771,
      "ðŁ§": 772,
      "Ġdeserve": 773,
      "Ġbet": 774,
      "ðŁĴĽ": 775,
      "Ġright": 776,
      "em": 777,
      "her": 778,
      "Ġnight": 779,
      "Ġlo": 780,
      "ick": 781,
      "ĠðŁį¦": 782,
      "Ġsoft": 783,
      "Ġsay": 784,
      "ause": 785,
      "Ġgood": 786,
      "umm": 787,
      "Ġenerg": 788,
      "Ġenergy": 789,
      "ummer": 790,
      "The": 791,
      "âĺķ": 792,
      "ðŁĺĦ": 793,
      "Ġready": 794,
      "ark": 795,
      "Ġall": 796,
      "Ġstock": 797,
      "Ġcravings": 798,
      "'re": 799,
      "Ġbec": 800,
      "°\"": 801,
      "Ġear": 802,
      "side": 803,
      "op": 804,
      "Ġabout": 805,
      "«Ĳ": 806,
      "Ġpack": 807,
      "idn": 808,
      "ft": 809,
      "Ġleft": 810,
      "omet": 811,
      "Ġstart": 812,
      "estive": 813,
      "âĿ¤ï¸ı": 814,
      "ies": 815,
      "ðŁĳ": 816,
      "Ġmore": 817,
      "olut": 818,
      "ance": 819,
      "Ġpr": 820,
      "ise": 821,
      "air": 822,
      "ðŁįª\"": 823,
      "ĠðŁįª": 824,
      "âı³\"": 825,
      "Ġtreat": 826,
      "ðŁ§ģ": 827,
      "ater": 828,
      "ðŁİĤ": 829,
      "Ġbak": 830,
      "Ġget": 831,
      "ik": 832,
      "ike": 833,
      "ĠðŁĺ": 834,
      "irst": 835,
      "Ġde": 836,
      "Ġtap": 837,
      "âľ¨\"": 838,
      "ade": 839,
      "ĠðŁĽĭï¸ı": 840,
      "isc": 841,
      "Ġwor": 842,
      "able": 843,
      "ĠLimited": 844,
      "urpr": 845,
      "Ġbest": 846,
      "Ġcraving": 847,
      "ĠðŁĵħ": 848,
      "Ġrest": 849,
      "Ġdeliver": 850,
      "ðŁĴĻ": 851,
      "Ġpatient": 852,
      "ðŁĶ": 853,
      "ðŁ¤İ": 854,
      "ðŁį¦\"": 855,
      "ðŁį§": 856,
      "ans": 857,
      "Ġâľ¨": 858,
      "uesday": 859,
      "ons": 860,
      "Ġlon": 861,
      "ld": 862,
      "Ġdays": 863,
      "ĠTuesday": 864,
      "riday": 865,
      "ĠFriday": 866,
      "esh": 867,
      "rant": 868,
      "Ġrestock": 869,
      "eel": 870,
      "ĠðŁ¥¥": 871,
      "oy": 872,
      "Ġneeds": 873,
      "ĠSh": 874,
      "Ġsm": 875,
      "az": 876,
      "Ġfrom": 877,
      "Ġsome": 878,
      "!\"": 879,
      "ts": 880,
      "ecast": 881,
      "ĠðŁı": 882,
      "..": 883,
      "app": 884,
      "Ġbreak": 885,
      "ual": 886,
      "Ġwarm": 887,
      "ward": 888,
      "Ġdi": 889,
      "Ġdec": 890,
      "Cart": 891,
      "Ġgo": 892,
      "Ġlike": 893,
      "ely": 894,
      "asted": 895,
      "Ġtill": 896,
      "ðŁĺĦ\"": 897,
      "Ġyours": 898,
      "Ġquiet": 899,
      "Ġbecause": 900,
      "ite": 901,
      "Ġhours": 902,
      "olor": 903,
      "ĠIt": 904,
      "ðŁİī": 905,
      "Ġus": 906,
      "Ġmin": 907,
      "mal": 908,
      "ĠY": 909,
      "ber": 910,
      "noon": 911,
      "Ġafternoon": 912,
      "Ġel": 913,
      "Ġdropp": 914,
      "ves": 915,
      "ĠðŁķ": 916,
      "read": 917,
      "Ġplans": 918,
      "ĠTry": 919,
      "inder": 920,
      "Ġfin": 921,
      "ĠYear": 922,
      "ĠCr": 923,
      "Ġlong": 924,
      "ision": 925,
      "Ġrem": 926,
      "ue": 927,
      "Ġ5": 928,
      "ðŁĽ": 929,
      "Ġsomet": 930,
      "Ġlight": 931,
      "Ġsit": 932,
      "zero": 933,
      "ĠHot": 934,
      "Ġsitting": 935,
      "ave": 936,
      "oth": 937,
      "oli": 938,
      "akes": 939,
      "sic": 940,
      "Ġfresh": 941,
      "Ġtubs": 942,
      "urprise": 943,
      "onight": 944,
      "¡ï¸ı": 945,
      "Ġpro": 946,
      "Ġsays": 947,
      "pl": 948,
      "Ġzero": 949,
      "ial": 950,
      "eep": 951,
      "val": 952,
      "ence": 953,
      "ig": 954,
      "ved": 955,
      "Ġbetter": 956,
      "Ġcoun": 957,
      "Ġmake": 958,
      "Ġreward": 959,
      "Ġneeded": 960,
      "Ġby": 961,
      "ale": 962,
      "Ġdropped": 963,
      "Ġany": 964,
      "âĺ": 965,
      "Ġfirst": 966,
      "Ġhit": 967,
      "Ġhot": 968,
      "Ġfaster": 969,
      "Ġend": 970,
      "Ġsomething": 971,
      "ĠðŁ¥Ĳ": 972,
      "xt": 973,
      "Ġdoes": 974,
      "loud": 975,
      "ĠðŁĽĴ": 976,
      "most": 977,
      "Ġchance": 978,
      "fort": 979,
      "ather": 980,
      "Ġâı": 981,
      "Ġ'": 982,
      "Ġnext": 983,
      "Ġbaker": 984,
      "Ġfeel": 985,
      "ecial": 986,
      "amom": 987,
      "Ġcold": 988,
      "load": 989,
      "verload": 990,
      "Ġalert": 991,
      "Ġalmost": 992,
      "astry": 993,
      "ĠFor": 994,
      "ļ¡": 995,
      "ĠDay": 996,
      "Ġsmall": 997,
      "list": 998,
      "anill": 999
    },
    "merges": [
      [
        "ð",
        "Ł"
      ],
      [
        "e",
        "r"
      ],
      [
        "Ġ",
        "t"
      ],
      [
        "i",
        "n"
      ],
      [
        "č",
        "Ċ"
      ],
      [
        "Ġ",
        "a"
      ],
      [
        "o",
        "u"
      ],
      [
        "Ġ",
        "ðŁ"
      ],
      [
        "Ġ",
        "s"
      ],
      [
        "o",
        "r"
      ],
      [
        "o",
        "n"
      ],
      [
        "e",
        "s"
      ],
      [
        "i",
        "s"
      ],
      [
        "i",
        "t"
      ],
      [
        "Ġ",
        "c"
      ],
      [
        "a",
        "r"
      ],
      [
        "Ġ",
        "f"
      ],
      [
        "in",
        "g"
      ],
      [
        "Ġt",
        "h"
      ],
      [
        "Ġ",
        "C"
      ],
      [
        "Ġ",
        "d"
      ],
      [
        "r",
        "e"
      ],
      [
        "Ġ",
        "b"
      ],
      [
        "e",
        "d"
      ],
      [
        "Ġ",
        "w"
      ],
      [
        "a",
        "n"
      ],
      [
        "a",
        "y"
      ],
      [
        "e",
        "n"
      ],
      [
        "e",
        "l"
      ],
      [
        "'",
        "s"
      ],
      [
        "a",
        "t"
      ],
      [
        "a",
        "s"
      ],
      [
        "a",
        "l"
      ],
      [
        "Ġ",
        "S"
      ],
      [
        "Ġ",
        "B"
      ],
      [
        ".",
        "\""
      ],
      [
        "Ġ",
        "y"
      ],
      [
        "ou",
        "r"
      ],
      [
        "Ġ",
        "T"
      ],
      [
        "Ġth",
        "e"
      ],
      [
        "o",
        "f"
      ],
      [
        "Ġ",
        "n"
      ],
      [
        "e",
        "t"
      ],
      [
        "n",
        "d"
      ],
      [
        "Ġ",
        "l"
      ],
      [
        "ðŁ",
        "į"
      ],
      [
        "e",
        "c"
      ],
      [
        "Ġ",
        "m"
      ],
      [
        "o",
        "w"
      ],
      [
        "a",
        "m"
      ],
      [
        "Ġ",
        "h"
      ],
      [
        "l",
        "y"
      ],
      [
        "Ġ",
        "p"
      ],
      [
        "o",
        "m"
      ],
      [
        "Ġ",
        "P"
      ],
      [
        "i",
        "c"
      ],
      [
        "o",
        "c"
      ],
      [
        "d",
        "ay"
      ],
      [
        "u",
        "t"
      ],
      [
        "Ġ",
        "of"
      ],
      [
        "u",
        "s"
      ],
      [
        "d",
        "er"
      ],
      [
        "Ġt",
        "o"
      ],
      [
        "g",
        "h"
      ],
      [
        "e",
        "e"
      ],
      [
        "ĠC",
        "h"
      ],
      [
        "Ġ",
        "e"
      ],
      [
        "c",
        "h"
      ],
      [
        "Ġ",
        "it"
      ],
      [
        "Ġf",
        "or"
      ],
      [
        "a",
        "v"
      ],
      [
        "¸",
        "ı"
      ],
      [
        "ï",
        "¸ı"
      ],
      [
        "Ġy",
        "our"
      ],
      [
        "ar",
        "t"
      ],
      [
        "o",
        "o"
      ],
      [
        "Ġa",
        "nd"
      ],
      [
        "v",
        "er"
      ],
      [
        "o",
        "t"
      ],
      [
        "o",
        "l"
      ],
      [
        "a",
        "k"
      ],
      [
        "ĠðŁ",
        "Į"
      ],
      [
        "i",
        "gh"
      ],
      [
        "i",
        "r"
      ],
      [
        "Ġ",
        "R"
      ],
      [
        "Ġy",
        "ou"
      ],
      [
        "as",
        "t"
      ],
      [
        "i",
        "m"
      ],
      [
        "Ġ",
        "r"
      ],
      [
        "igh",
        "t"
      ],
      [
        "Ġ",
        "on"
      ],
      [
        "i",
        "e"
      ],
      [
        "Ġb",
        "e"
      ],
      [
        "ĠðŁ",
        "į"
      ],
      [
        "Ġ",
        "in"
      ],
      [
        "Ġ",
        "g"
      ],
      [
        "is",
        "t"
      ],
      [
        "Ġs",
        "t"
      ],
      [
        "or",
        "der"
      ],
      [
        "l",
        "l"
      ],
      [
        "Ġ",
        "is"
      ],
      [
        "Ġ",
        "â"
      ],
      [
        "Ġ",
        "re"
      ],
      [
        "l",
        "e"
      ],
      [
        "ow",
        "n"
      ],
      [
        "a",
        "d"
      ],
      [
        "es",
        "s"
      ],
      [
        "Ġ",
        "j"
      ],
      [
        "I",
        "t"
      ],
      [
        "us",
        "t"
      ],
      [
        "Ġn",
        "e"
      ],
      [
        "v",
        "e"
      ],
      [
        "Ġ",
        "order"
      ],
      [
        "en",
        "t"
      ],
      [
        "ou",
        "t"
      ],
      [
        "t",
        "er"
      ],
      [
        "r",
        "own"
      ],
      [
        "ĠB",
        "rown"
      ],
      [
        "ĠBrown",
        "ie"
      ],
      [
        "Ġj",
        "ust"
      ],
      [
        "ĠCh",
        "oc"
      ],
      [
        "ĠðŁ",
        "¥"
      ],
      [
        "Y",
        "our"
      ],
      [
        "c",
        "e"
      ],
      [
        "r",
        "i"
      ],
      [
        "it",
        "h"
      ],
      [
        "er",
        "t"
      ],
      [
        "u",
        "l"
      ],
      [
        "o",
        "s"
      ],
      [
        "i",
        "on"
      ],
      [
        "es",
        "t"
      ],
      [
        "Ġc",
        "art"
      ],
      [
        "Ġ",
        "F"
      ],
      [
        "r",
        "o"
      ],
      [
        "Ġ",
        "1"
      ],
      [
        "Ġw",
        "ith"
      ],
      [
        "u",
        "n"
      ],
      [
        "Ġ",
        "K"
      ],
      [
        "u",
        "p"
      ],
      [
        "u",
        "r"
      ],
      [
        "u",
        "nd"
      ],
      [
        "ak",
        "e"
      ],
      [
        "i",
        "ll"
      ],
      [
        "a",
        "c"
      ],
      [
        "Ġf",
        "l"
      ],
      [
        "av",
        "or"
      ],
      [
        "ee",
        "k"
      ],
      [
        "i",
        "d"
      ],
      [
        "Ġ",
        "M"
      ],
      [
        "ess",
        "ert"
      ],
      [
        "ver",
        "y"
      ],
      [
        "Ġd",
        "essert"
      ],
      [
        "at",
        "e"
      ],
      [
        "om",
        "e"
      ],
      [
        "Ġ",
        "W"
      ],
      [
        "an",
        "t"
      ],
      [
        "Ġ",
        "D"
      ],
      [
        "Ġ",
        "L"
      ],
      [
        "Ġth",
        "is"
      ],
      [
        "Ġto",
        "day"
      ],
      [
        "en",
        "d"
      ],
      [
        "ðŁį",
        "«"
      ],
      [
        "ĠC",
        "ar"
      ],
      [
        "Ġc",
        "h"
      ],
      [
        "Ġw",
        "eek"
      ],
      [
        "Ġfl",
        "avor"
      ],
      [
        "of",
        "f"
      ],
      [
        "ac",
        "k"
      ],
      [
        "ðŁ",
        "ĺ"
      ],
      [
        "ĺ",
        "ķ"
      ],
      [
        "Ġc",
        "om"
      ],
      [
        "u",
        "m"
      ],
      [
        "Ġh",
        "as"
      ],
      [
        "Ġ",
        "A"
      ],
      [
        "f",
        "i"
      ],
      [
        "ĠS",
        "und"
      ],
      [
        "oc",
        "k"
      ],
      [
        "'",
        "t"
      ],
      [
        "e",
        "w"
      ],
      [
        "f",
        "f"
      ],
      [
        "Ġof",
        "f"
      ],
      [
        "ĠChoc",
        "o"
      ],
      [
        "al",
        "ly"
      ],
      [
        "ul",
        "fi"
      ],
      [
        "or",
        "e"
      ],
      [
        "Ġ",
        "O"
      ],
      [
        "â",
        "ı"
      ],
      [
        "Ġd",
        "ay"
      ],
      [
        "is",
        "s"
      ],
      [
        "ľ",
        "¨"
      ],
      [
        "ĠK",
        "ulfi"
      ],
      [
        "ist",
        "a"
      ],
      [
        "an",
        "g"
      ],
      [
        "ĠP",
        "ista"
      ],
      [
        "ĠB",
        "l"
      ],
      [
        "am",
        "el"
      ],
      [
        "ĠCar",
        "amel"
      ],
      [
        "u",
        "b"
      ],
      [
        "as",
        "on"
      ],
      [
        "b",
        "o"
      ],
      [
        "a",
        "p"
      ],
      [
        "er",
        "e"
      ],
      [
        "N",
        "ew"
      ],
      [
        "ðŁ",
        "Ĵ"
      ],
      [
        "Ġ",
        "out"
      ],
      [
        "ec",
        "t"
      ],
      [
        "os",
        "e"
      ],
      [
        "ang",
        "o"
      ],
      [
        "Ġt",
        "ub"
      ],
      [
        "an",
        "d"
      ],
      [
        "Ġbe",
        "en"
      ],
      [
        "Ġa",
        "l"
      ],
      [
        "Ġne",
        "ed"
      ],
      [
        "u",
        "d"
      ],
      [
        "a",
        "in"
      ],
      [
        "a",
        "it"
      ],
      [
        "off",
        "ee"
      ],
      [
        "r",
        "y"
      ],
      [
        "Ġ",
        "V"
      ],
      [
        "at",
        "ch"
      ],
      [
        "el",
        "l"
      ],
      [
        "ðŁį",
        "¦"
      ],
      [
        "ĠðŁ",
        "ĵ"
      ],
      [
        "Ġa",
        "t"
      ],
      [
        "Ġ",
        "J"
      ],
      [
        "a",
        "i"
      ],
      [
        "e",
        "es"
      ],
      [
        "re",
        "e"
      ],
      [
        "Ġa",
        "re"
      ],
      [
        "Ġs",
        "c"
      ],
      [
        "Ġd",
        "el"
      ],
      [
        "ĠCh",
        "ees"
      ],
      [
        "ĠChees",
        "ec"
      ],
      [
        "ĠCheesec",
        "ake"
      ],
      [
        "oo",
        "p"
      ],
      [
        "oo",
        "d"
      ],
      [
        "ðŁ",
        "İ"
      ],
      [
        "Ġw",
        "ait"
      ],
      [
        "ch",
        "i"
      ],
      [
        "oo",
        "k"
      ],
      [
        "a",
        "b"
      ],
      [
        "al",
        "l"
      ],
      [
        "Ġon",
        "e"
      ],
      [
        "chi",
        "o"
      ],
      [
        "T",
        "h"
      ],
      [
        "ĠPista",
        "chio"
      ],
      [
        "Ġe",
        "x"
      ],
      [
        "a",
        "e"
      ],
      [
        "is",
        "u"
      ],
      [
        "am",
        "isu"
      ],
      [
        "ir",
        "amisu"
      ],
      [
        "ĠT",
        "iramisu"
      ],
      [
        "Ġâ",
        "ĺķ"
      ],
      [
        "ĠT",
        "h"
      ],
      [
        "Ġn",
        "o"
      ],
      [
        "u",
        "i"
      ],
      [
        "ĠR",
        "ose"
      ],
      [
        "âı",
        "³"
      ],
      [
        "on",
        "e"
      ],
      [
        "it",
        "ed"
      ],
      [
        "im",
        "ited"
      ],
      [
        "ud",
        "g"
      ],
      [
        "am",
        "e"
      ],
      [
        "Ġe",
        "very"
      ],
      [
        "e",
        "ason"
      ],
      [
        "Ġ",
        "H"
      ],
      [
        "ic",
        "i"
      ],
      [
        "ing",
        "s"
      ],
      [
        "Ġwait",
        "ing"
      ],
      [
        "ĠðŁ",
        "Ľ"
      ],
      [
        "Ġt",
        "im"
      ],
      [
        "Ġn",
        "ow"
      ],
      [
        "ol",
        "d"
      ],
      [
        "Ġb",
        "atch"
      ],
      [
        "â",
        "ľ¨"
      ],
      [
        "Ġc",
        "r"
      ],
      [
        "Ġdel",
        "i"
      ],
      [
        "Ġ",
        "N"
      ],
      [
        "Ġon",
        "ly"
      ],
      [
        "§",
        "ï¸ı"
      ],
      [
        "t",
        "h"
      ],
      [
        "Ġs",
        "eason"
      ],
      [
        "Y",
        "ou"
      ],
      [
        "ðŁ",
        "ĵ"
      ],
      [
        "S",
        "ome"
      ],
      [
        "Ġcom",
        "bo"
      ],
      [
        "w",
        "e"
      ],
      [
        "ic",
        "e"
      ],
      [
        "ĠðŁ",
        "İ"
      ],
      [
        "f",
        "ore"
      ],
      [
        "Ġbe",
        "fore"
      ],
      [
        "Ġst",
        "ill"
      ],
      [
        "ĠðŁ¥",
        "Ń"
      ],
      [
        "ĠSund",
        "ae"
      ],
      [
        "Ġ",
        "2"
      ],
      [
        "Ġp",
        "er"
      ],
      [
        "Ġw",
        "h"
      ],
      [
        "udg",
        "e"
      ],
      [
        "Ġ",
        "k"
      ],
      [
        "ĠðŁĮ",
        "§ï¸ı"
      ],
      [
        "Ġoff",
        "ici"
      ],
      [
        "Ġf",
        "r"
      ],
      [
        "ol",
        "ate"
      ],
      [
        "Ġcr",
        "av"
      ],
      [
        "ĠM",
        "ango"
      ],
      [
        "ĠS",
        "t"
      ],
      [
        "b",
        "et"
      ],
      [
        "or",
        "bet"
      ],
      [
        "ðŁį«",
        "\""
      ],
      [
        "ĠS",
        "orbet"
      ],
      [
        "ĠB",
        "it"
      ],
      [
        "ðŁ",
        "¤"
      ],
      [
        "Ġsc",
        "oop"
      ],
      [
        "Ġb",
        "ut"
      ],
      [
        "Ġ",
        "+"
      ],
      [
        "ec",
        "k"
      ],
      [
        "ĠB",
        "ar"
      ],
      [
        "Ġoffici",
        "ally"
      ],
      [
        "el",
        "v"
      ],
      [
        "ĠC",
        "up"
      ],
      [
        "ĠV",
        "elv"
      ],
      [
        "ĠVelv",
        "et"
      ],
      [
        "ĠBit",
        "es"
      ],
      [
        "f",
        "ect"
      ],
      [
        "ĠF",
        "udge"
      ],
      [
        "ro",
        "p"
      ],
      [
        "ĠðŁį",
        "«"
      ],
      [
        "Ġn",
        "ot"
      ],
      [
        "ĠChoc",
        "olate"
      ],
      [
        "w",
        "ir"
      ],
      [
        "ĠS",
        "wir"
      ],
      [
        "ĠSwir",
        "l"
      ],
      [
        "Ġd",
        "es"
      ],
      [
        "ĠJ",
        "ar"
      ],
      [
        "ĠW",
        "e"
      ],
      [
        "ðŁ",
        "¥"
      ],
      [
        "Ġs",
        "h"
      ],
      [
        "Ġdes",
        "er"
      ],
      [
        "o",
        "day"
      ],
      [
        "Ġc",
        "l"
      ],
      [
        "ĠC",
        "ook"
      ],
      [
        "in",
        "ce"
      ],
      [
        "Ġs",
        "ince"
      ],
      [
        "s",
        "t"
      ],
      [
        "Ġf",
        "ree"
      ],
      [
        "Ġa",
        "b"
      ],
      [
        "t",
        "ed"
      ],
      [
        "w",
        "ist"
      ],
      [
        "t",
        "ing"
      ],
      [
        "v",
        "en"
      ],
      [
        "Ġch",
        "eck"
      ],
      [
        "ðŁ",
        "Į"
      ],
      [
        "o",
        "on"
      ],
      [
        "ic",
        "h"
      ],
      [
        "i",
        "p"
      ],
      [
        "ad",
        "y"
      ],
      [
        "n",
        "ing"
      ],
      [
        "ĠC",
        "offee"
      ],
      [
        "ðŁį",
        "ª"
      ],
      [
        "Ġth",
        "at"
      ],
      [
        "Ġl",
        "e"
      ],
      [
        "i",
        "ve"
      ],
      [
        "Ġper",
        "fect"
      ],
      [
        "Ġtim",
        "e"
      ],
      [
        "Ġ",
        "G"
      ],
      [
        "p",
        "le"
      ],
      [
        "ar",
        "d"
      ],
      [
        "Ġd",
        "rop"
      ],
      [
        "Ġ",
        "en"
      ],
      [
        "Ġ",
        "up"
      ],
      [
        "ou",
        "gh"
      ],
      [
        "Ġl",
        "ast"
      ],
      [
        "ĠðŁ",
        "§"
      ],
      [
        "ĠP",
        "M"
      ],
      [
        "Ġs",
        "we"
      ],
      [
        "Ġc",
        "all"
      ],
      [
        "Ġs",
        "p"
      ],
      [
        "Ġm",
        "or"
      ],
      [
        "Ġswe",
        "et"
      ],
      [
        "Ġp",
        "l"
      ],
      [
        "ĠðŁ",
        "Ĵ"
      ],
      [
        "at",
        "i"
      ],
      [
        "Ġd",
        "o"
      ],
      [
        "ĠðŁĮ",
        "¸"
      ],
      [
        "Ġw",
        "e"
      ],
      [
        "f",
        "ter"
      ],
      [
        "e",
        "an"
      ],
      [
        "Ġ",
        "3"
      ],
      [
        "ui",
        "et"
      ],
      [
        "ħ",
        "\""
      ],
      [
        "Ġe",
        "ven"
      ],
      [
        "S",
        "A"
      ],
      [
        "Ġa",
        "fter"
      ],
      [
        "id",
        "e"
      ],
      [
        "Ġ",
        "o"
      ],
      [
        "Ġ",
        "q"
      ],
      [
        "re",
        "am"
      ],
      [
        "Ġs",
        "l"
      ],
      [
        "Ġa",
        "n"
      ],
      [
        "i",
        "f"
      ],
      [
        "r",
        "der"
      ],
      [
        "on",
        "d"
      ],
      [
        "o",
        "ad"
      ],
      [
        "P",
        "SA"
      ],
      [
        "w",
        "ay"
      ],
      [
        "Ġ",
        "un"
      ],
      [
        "un",
        "ch"
      ],
      [
        "i",
        "ly"
      ],
      [
        "am",
        "ily"
      ],
      [
        "'",
        "ve"
      ],
      [
        "ĠO",
        "rder"
      ],
      [
        "ĠA",
        "M"
      ],
      [
        "z",
        "er"
      ],
      [
        "â",
        "Ŀ"
      ],
      [
        "r",
        "on"
      ],
      [
        "ĠðŁĮ",
        "Ļ"
      ],
      [
        "a",
        "ff"
      ],
      [
        "re",
        "at"
      ],
      [
        "ĠT",
        "r"
      ],
      [
        "Ġa",
        "s"
      ],
      [
        "av",
        "a"
      ],
      [
        "v",
        "i"
      ],
      [
        "Ġr",
        "ain"
      ],
      [
        "in",
        "t"
      ],
      [
        "it",
        "y"
      ],
      [
        "ĠB",
        "ut"
      ],
      [
        "Ġ1",
        "0"
      ],
      [
        "ĠS",
        "al"
      ],
      [
        "Ġc",
        "ou"
      ],
      [
        "r",
        "a"
      ],
      [
        "re",
        "ak"
      ],
      [
        "Ġth",
        "an"
      ],
      [
        "ĠL",
        "ava"
      ],
      [
        "l",
        "m"
      ],
      [
        "ĠR",
        "ed"
      ],
      [
        "re",
        "m"
      ],
      [
        "es",
        "day"
      ],
      [
        "ĠBut",
        "ter"
      ],
      [
        "ro",
        "iss"
      ],
      [
        "roiss",
        "ant"
      ],
      [
        "ĠC",
        "roissant"
      ],
      [
        "ut",
        "ell"
      ],
      [
        "utell",
        "a"
      ],
      [
        "Ġ",
        "4"
      ],
      [
        "Ġeven",
        "ing"
      ],
      [
        "ĠSund",
        "ay"
      ],
      [
        "Ġr",
        "es"
      ],
      [
        "us",
        "e"
      ],
      [
        "c",
        "t"
      ],
      [
        "u",
        "ff"
      ],
      [
        "ĠN",
        "utella"
      ],
      [
        "aff",
        "ron"
      ],
      [
        "on",
        "ut"
      ],
      [
        "oc",
        "onut"
      ],
      [
        "ĠC",
        "oconut"
      ],
      [
        "Ġdeli",
        "very"
      ],
      [
        "os",
        "t"
      ],
      [
        "re",
        "d"
      ],
      [
        "Ġl",
        "imited"
      ],
      [
        "ĠS",
        "affron"
      ],
      [
        "ĠBl",
        "iss"
      ],
      [
        "i",
        "um"
      ],
      [
        "ĠD",
        "el"
      ],
      [
        "rem",
        "ium"
      ],
      [
        "Ġ",
        "our"
      ],
      [
        "in",
        "e"
      ],
      [
        "ĠA",
        "lm"
      ],
      [
        "ĠAlm",
        "ond"
      ],
      [
        "in",
        "d"
      ],
      [
        "ĠT",
        "wist"
      ],
      [
        "ĠDel",
        "ight"
      ],
      [
        "ri",
        "ple"
      ],
      [
        "ĠCh",
        "ip"
      ],
      [
        "ĠP",
        "remium"
      ],
      [
        "ou",
        "d"
      ],
      [
        "n",
        "ut"
      ],
      [
        "Ġh",
        "our"
      ],
      [
        "ĠCook",
        "ie"
      ],
      [
        "g",
        "i"
      ],
      [
        "el",
        "gi"
      ],
      [
        "elgi",
        "an"
      ],
      [
        "Ġweek",
        "end"
      ],
      [
        "¤",
        "ï¸ı"
      ],
      [
        "ĠBl",
        "ack"
      ],
      [
        "ĠSal",
        "ted"
      ],
      [
        "ec",
        "an"
      ],
      [
        "Ġf",
        "ast"
      ],
      [
        "ĠP",
        "ecan"
      ],
      [
        "Ġw",
        "ar"
      ],
      [
        "ĠT",
        "oday"
      ],
      [
        "ĠT",
        "riple"
      ],
      [
        "Ġmor",
        "ning"
      ],
      [
        "ĠB",
        "elgian"
      ],
      [
        "s",
        "e"
      ],
      [
        "ĠT",
        "art"
      ],
      [
        "h",
        "ing"
      ],
      [
        "Ġp",
        "ati"
      ],
      [
        "ĭ",
        "ï¸ı"
      ],
      [
        "er",
        "g"
      ],
      [
        "ĠðŁį",
        "°"
      ],
      [
        "Ġf",
        "amily"
      ],
      [
        "Ġs",
        "of"
      ],
      [
        "ðŁį",
        "¨"
      ],
      [
        "Ġd",
        "on"
      ],
      [
        "at",
        "ion"
      ],
      [
        "is",
        "h"
      ],
      [
        "p",
        "r"
      ],
      [
        "or",
        "t"
      ],
      [
        "Ġne",
        "w"
      ],
      [
        "Ġs",
        "ame"
      ],
      [
        "el",
        "f"
      ],
      [
        "e",
        "ar"
      ],
      [
        "ðŁ",
        "§"
      ],
      [
        "Ġdeser",
        "ve"
      ],
      [
        "Ġb",
        "et"
      ],
      [
        "ðŁĴ",
        "Ľ"
      ],
      [
        "Ġr",
        "ight"
      ],
      [
        "e",
        "m"
      ],
      [
        "h",
        "er"
      ],
      [
        "Ġn",
        "ight"
      ],
      [
        "Ġl",
        "o"
      ],
      [
        "ic",
        "k"
      ],
      [
        "ĠðŁį",
        "¦"
      ],
      [
        "Ġsof",
        "t"
      ],
      [
        "Ġs",
        "ay"
      ],
      [
        "a",
        "use"
      ],
      [
        "Ġg",
        "ood"
      ],
      [
        "um",
        "m"
      ],
      [
        "Ġen",
        "erg"
      ],
      [
        "Ġenerg",
        "y"
      ],
      [
        "umm",
        "er"
      ],
      [
        "Th",
        "e"
      ],
      [
        "â",
        "ĺķ"
      ],
      [
        "ðŁĺ",
        "Ħ"
      ],
      [
        "Ġre",
        "ady"
      ],
      [
        "ar",
        "k"
      ],
      [
        "Ġa",
        "ll"
      ],
      [
        "Ġst",
        "ock"
      ],
      [
        "Ġcrav",
        "ings"
      ],
      [
        "'",
        "re"
      ],
      [
        "Ġb",
        "ec"
      ],
      [
        "°",
        "\""
      ],
      [
        "Ġe",
        "ar"
      ],
      [
        "s",
        "ide"
      ],
      [
        "o",
        "p"
      ],
      [
        "Ġab",
        "out"
      ],
      [
        "«",
        "Ĳ"
      ],
      [
        "Ġp",
        "ack"
      ],
      [
        "id",
        "n"
      ],
      [
        "f",
        "t"
      ],
      [
        "Ġle",
        "ft"
      ],
      [
        "om",
        "et"
      ],
      [
        "Ġst",
        "art"
      ],
      [
        "est",
        "ive"
      ],
      [
        "âĿ",
        "¤ï¸ı"
      ],
      [
        "i",
        "es"
      ],
      [
        "ðŁ",
        "ĳ"
      ],
      [
        "Ġm",
        "ore"
      ],
      [
        "ol",
        "ut"
      ],
      [
        "an",
        "ce"
      ],
      [
        "Ġp",
        "r"
      ],
      [
        "is",
        "e"
      ],
      [
        "a",
        "ir"
      ],
      [
        "ðŁįª",
        "\""
      ],
      [
        "ĠðŁį",
        "ª"
      ],
      [
        "âı³",
        "\""
      ],
      [
        "Ġt",
        "reat"
      ],
      [
        "ðŁ§",
        "ģ"
      ],
      [
        "at",
        "er"
      ],
      [
        "ðŁİ",
        "Ĥ"
      ],
      [
        "Ġb",
        "ak"
      ],
      [
        "Ġg",
        "et"
      ],
      [
        "i",
        "k"
      ],
      [
        "ik",
        "e"
      ],
      [
        "ĠðŁ",
        "ĺ"
      ],
      [
        "ir",
        "st"
      ],
      [
        "Ġd",
        "e"
      ],
      [
        "Ġt",
        "ap"
      ],
      [
        "âľ¨",
        "\""
      ],
      [
        "ad",
        "e"
      ],
      [
        "ĠðŁĽ",
        "ĭï¸ı"
      ],
      [
        "is",
        "c"
      ],
      [
        "Ġw",
        "or"
      ],
      [
        "ab",
        "le"
      ],
      [
        "ĠL",
        "imited"
      ],
      [
        "ur",
        "pr"
      ],
      [
        "Ġb",
        "est"
      ],
      [
        "Ġcrav",
        "ing"
      ],
      [
        "ĠðŁĵ",
        "ħ"
      ],
      [
        "Ġr",
        "est"
      ],
      [
        "Ġdeli",
        "ver"
      ],
      [
        "ðŁĴ",
        "Ļ"
      ],
      [
        "Ġpati",
        "ent"
      ],
      [
        "ðŁ",
        "Ķ"
      ],
      [
        "ðŁ¤",
        "İ"
      ],
      [
        "ðŁį¦",
        "\""
      ],
      [
        "ðŁį",
        "§"
      ],
      [
        "an",
        "s"
      ],
      [
        "Ġâ",
        "ľ¨"
      ],
      [
        "u",
        "esday"
      ],
      [
        "on",
        "s"
      ],
      [
        "Ġl",
        "on"
      ],
      [
        "l",
        "d"
      ],
      [
        "Ġday",
        "s"
      ],
      [
        "ĠT",
        "uesday"
      ],
      [
        "ri",
        "day"
      ],
      [
        "ĠF",
        "riday"
      ],
      [
        "es",
        "h"
      ],
      [
        "r",
        "ant"
      ],
      [
        "Ġrest",
        "ock"
      ],
      [
        "e",
        "el"
      ],
      [
        "ĠðŁ¥",
        "¥"
      ],
      [
        "o",
        "y"
      ],
      [
        "Ġneed",
        "s"
      ],
      [
        "ĠS",
        "h"
      ],
      [
        "Ġs",
        "m"
      ],
      [
        "a",
        "z"
      ],
      [
        "Ġfr",
        "om"
      ],
      [
        "Ġs",
        "ome"
      ],
      [
        "!",
        "\""
      ],
      [
        "t",
        "s"
      ],
      [
        "ec",
        "ast"
      ],
      [
        "ĠðŁ",
        "ı"
      ],
      [
        ".",
        "."
      ],
      [
        "ap",
        "p"
      ],
      [
        "Ġb",
        "reak"
      ],
      [
        "u",
        "al"
      ],
      [
        "Ġwar",
        "m"
      ],
      [
        "w",
        "ard"
      ],
      [
        "Ġd",
        "i"
      ],
      [
        "Ġd",
        "ec"
      ],
      [
        "C",
        "art"
      ],
      [
        "Ġg",
        "o"
      ],
      [
        "Ġl",
        "ike"
      ],
      [
        "el",
        "y"
      ],
      [
        "ast",
        "ed"
      ],
      [
        "Ġt",
        "ill"
      ],
      [
        "ðŁĺĦ",
        "\""
      ],
      [
        "Ġyour",
        "s"
      ],
      [
        "Ġq",
        "uiet"
      ],
      [
        "Ġbec",
        "ause"
      ],
      [
        "it",
        "e"
      ],
      [
        "Ġhour",
        "s"
      ],
      [
        "ol",
        "or"
      ],
      [
        "Ġ",
        "It"
      ],
      [
        "ðŁİ",
        "ī"
      ],
      [
        "Ġ",
        "us"
      ],
      [
        "Ġm",
        "in"
      ],
      [
        "m",
        "al"
      ],
      [
        "Ġ",
        "Y"
      ],
      [
        "b",
        "er"
      ],
      [
        "n",
        "oon"
      ],
      [
        "Ġafter",
        "noon"
      ],
      [
        "Ġ",
        "el"
      ],
      [
        "Ġdrop",
        "p"
      ],
      [
        "v",
        "es"
      ],
      [
        "ĠðŁ",
        "ķ"
      ],
      [
        "re",
        "ad"
      ],
      [
        "Ġpl",
        "ans"
      ],
      [
        "ĠT",
        "ry"
      ],
      [
        "in",
        "der"
      ],
      [
        "Ġf",
        "in"
      ],
      [
        "ĠY",
        "ear"
      ],
      [
        "ĠC",
        "r"
      ],
      [
        "Ġlon",
        "g"
      ],
      [
        "is",
        "ion"
      ],
      [
        "Ġre",
        "m"
      ],
      [
        "u",
        "e"
      ],
      [
        "Ġ",
        "5"
      ],
      [
        "ðŁ",
        "Ľ"
      ],
      [
        "Ġs",
        "omet"
      ],
      [
        "Ġl",
        "ight"
      ],
      [
        "Ġs",
        "it"
      ],
      [
        "zer",
        "o"
      ],
      [
        "ĠH",
        "ot"
      ],
      [
        "Ġsit",
        "ting"
      ],
      [
        "av",
        "e"
      ],
      [
        "ot",
        "h"
      ],
      [
        "ol",
        "i"
      ],
      [
        "ak",
        "es"
      ],
      [
        "s",
        "ic"
      ],
      [
        "Ġfr",
        "esh"
      ],
      [
        "Ġtub",
        "s"
      ],
      [
        "urpr",
        "ise"
      ],
      [
        "on",
        "ight"
      ],
      [
        "¡",
        "ï¸ı"
      ],
      [
        "Ġp",
        "ro"
      ],
      [
        "Ġsay",
        "s"
      ],
      [
        "p",
        "l"
      ],
      [
        "Ġ",
        "zero"
      ],
      [
        "i",
        "al"
      ],
      [
        "ee",
        "p"
      ],
      [
        "v",
        "al"
      ],
      [
        "en",
        "ce"
      ],
      [
        "i",
        "g"
      ],
      [
        "v",
        "ed"
      ],
      [
        "Ġbet",
        "ter"
      ],
      [
        "Ġcou",
        "n"
      ],
      [
        "Ġm",
        "ake"
      ],
      [
        "Ġre",
        "ward"
      ],
      [
        "Ġneed",
        "ed"
      ],
      [
        "Ġb",
        "y"
      ],
      [
        "al",
        "e"
      ],
      [
        "Ġdropp",
        "ed"
      ],
      [
        "Ġan",
        "y"
      ],
      [
        "â",
        "ĺ"
      ],
      [
        "Ġf",
        "irst"
      ],
      [
        "Ġh",
        "it"
      ],
      [
        "Ġh",
        "ot"
      ],
      [
        "Ġfast",
        "er"
      ],
      [
        "Ġ",
        "end"
      ],
      [
        "Ġsomet",
        "hing"
      ],
      [
        "ĠðŁ¥",
        "Ĳ"
      ],
      [
        "x",
        "t"
      ],
      [
        "Ġdo",
        "es"
      ],
      [
        "l",
        "oud"
      ],
      [
        "ĠðŁĽ",
        "Ĵ"
      ],
      [
        "m",
        "ost"
      ],
      [
        "Ġch",
        "ance"
      ],
      [
        "f",
        "ort"
      ],
      [
        "at",
        "her"
      ],
      [
        "Ġâ",
        "ı"
      ],
      [
        "Ġ",
        "'"
      ],
      [
        "Ġne",
        "xt"
      ],
      [
        "Ġbak",
        "er"
      ],
      [
        "Ġf",
        "eel"
      ],
      [
        "ec",
        "ial"
      ],
      [
        "am",
        "om"
      ],
      [
        "Ġc",
        "old"
      ],
      [
        "l",
        "oad"
      ],
      [
        "ver",
        "load"
      ],
      [
        "Ġal",
        "ert"
      ],
      [
        "Ġal",
        "most"
      ],
      [
        "ast",
        "ry"
      ],
      [
        "ĠF",
        "or"
      ],
      [
        "ļ",
        "¡"
      ],
      [
        "ĠD",
        "ay"
      ],
      [
        "Ġsm",
        "all"
      ],
      [
        "l",
        "ist"
      ],
      [
        "an",
        "ill"
      ]
    ]
  }
}